{"<|endoftext|>":0,"!":1,"\"":2,"#":3,"$":4,"%":5,"&":6,"'":7,"(":8,")":9,"*":10,"+":11,",":12,"-":13,".":14,"/":15,"0":16,"1":17,"2":18,"3":19,"4":20,"5":21,"6":22,"7":23,"8":24,"9":25,":":26,";":27,"<":28,"=":29,">":30,"?":31,"@":32,"A":33,"B":34,"C":35,"D":36,"E":37,"F":38,"G":39,"H":40,"I":41,"J":42,"K":43,"L":44,"M":45,"N":46,"O":47,"P":48,"Q":49,"R":50,"S":51,"T":52,"U":53,"V":54,"W":55,"X":56,"Y":57,"Z":58,"[":59,"\\":60,"]":61,"^":62,"_":63,"`":64,"a":65,"b":66,"c":67,"d":68,"e":69,"f":70,"g":71,"h":72,"i":73,"j":74,"k":75,"l":76,"m":77,"n":78,"o":79,"p":80,"q":81,"r":82,"s":83,"t":84,"u":85,"v":86,"w":87,"x":88,"y":89,"z":90,"{":91,"|":92,"}":93,"~":94,"¡":95,"¢":96,"£":97,"¤":98,"¥":99,"¦":100,"§":101,"¨":102,"©":103,"ª":104,"«":105,"¬":106,"®":107,"¯":108,"°":109,"±":110,"²":111,"³":112,"´":113,"µ":114,"¶":115,"·":116,"¸":117,"¹":118,"º":119,"»":120,"¼":121,"½":122,"¾":123,"¿":124,"À":125,"Á":126,"Â":127,"Ã":128,"Ä":129,"Å":130,"Æ":131,"Ç":132,"È":133,"É":134,"Ê":135,"Ë":136,"Ì":137,"Í":138,"Î":139,"Ï":140,"Ð":141,"Ñ":142,"Ò":143,"Ó":144,"Ô":145,"Õ":146,"Ö":147,"×":148,"Ø":149,"Ù":150,"Ú":151,"Û":152,"Ü":153,"Ý":154,"Þ":155,"ß":156,"à":157,"á":158,"â":159,"ã":160,"ä":161,"å":162,"æ":163,"ç":164,"è":165,"é":166,"ê":167,"ë":168,"ì":169,"í":170,"î":171,"ï":172,"ð":173,"ñ":174,"ò":175,"ó":176,"ô":177,"õ":178,"ö":179,"÷":180,"ø":181,"ù":182,"ú":183,"û":184,"ü":185,"ý":186,"þ":187,"ÿ":188,"Ā":189,"ā":190,"Ă":191,"ă":192,"Ą":193,"ą":194,"Ć":195,"ć":196,"Ĉ":197,"ĉ":198,"Ċ":199,"ċ":200,"Č":201,"č":202,"Ď":203,"ď":204,"Đ":205,"đ":206,"Ē":207,"ē":208,"Ĕ":209,"ĕ":210,"Ė":211,"ė":212,"Ę":213,"ę":214,"Ě":215,"ě":216,"Ĝ":217,"ĝ":218,"Ğ":219,"ğ":220,"Ġ":221,"ġ":222,"Ģ":223,"ģ":224,"Ĥ":225,"ĥ":226,"Ħ":227,"ħ":228,"Ĩ":229,"ĩ":230,"Ī":231,"ī":232,"Ĭ":233,"ĭ":234,"Į":235,"į":236,"İ":237,"ı":238,"Ĳ":239,"ĳ":240,"Ĵ":241,"ĵ":242,"Ķ":243,"ķ":244,"ĸ":245,"Ĺ":246,"ĺ":247,"Ļ":248,"ļ":249,"Ľ":250,"ľ":251,"Ŀ":252,"ŀ":253,"Ł":254,"ł":255,"Ń":256,"er":257,"Ġi":258,"ot":259,"ser":260,"Bot":261,"User":262,"at":263,"Ġa":264,"in":265,"Ġt":266,"ing":267,"ou":268,"hat":269,"Ġs":270,"re":271,"Ġl":272,"Ġc":273,"nd":274,"ĠI":275,"Ġh":276,"Ġf":277,"ke":278,"ve":279,"ĠT":280,"Ġe":281,"Ġm":282,"it":283,"ĠThat":284,"Ġw":285,"Ġis":286,"nt":287,"Ġy":288,"Ġp":289,"Ġb":290,"or":291,"Ġyou":292,"ic":293,"st":294,"Ġli":295,"el":296,"Ġlike":297,"Ġto":298,"ol":299,"on":300,"ove":301,"Ġlove":302,"ery":303,"ar":304,"Ġen":305,"Ġg":306,"Ġthat":307,"ob":308,"reat":309,"'s":310,"Ġre":311,"Ġmy":312,"me":313,"Ġd":314,"nds":315,"ounds":316,"Ġfa":317,"Ġo":318,"'m":319,"ite":320,"pe":321,"Ġab":322,"very":323,"Ġof":324,"nc":325,"Ġsounds":326,"Ġint":327,"Ġth":328,"Ġam":329,"obb":330,"jo":331,"Ġhobb":332,"Ġhobby":333,"joy":334,"ut":335,"Ġenjoy":336,"Ġvery":337,"Ġit":338,"ie":339,"an":340,"Ġn":341,"le":342,"ll":343,"vor":344,"oo":345,"Ġch":346,"ear":347,"ond":348,"Ġgreat":349,"og":350,"as":351,"ake":352,"Ġti":353,"Ġhear":354,"Ġtime":355,"Ġspe":356,"Ġfavor":357,"Ġfavorite":358,"Ġspend":359,"est":360,"Ġeat":361,"ice":362,"ra":363,"Ġha":364,"nce":365,"Ġcho":366,"ience":367,"out":368,"ely":369,"Ġabout":370,"Ġwa":371,"ate":372,"ee":373,"ul":374,"hy":375,"Ġrea":376,"Ġinter":377,"Ġinterest":378,"Ġchoice":379,"Ġand":380,"Ġthing":381,"Ġlot":382,"sh":383,"'ve":384,"ĠA":385,"ion":386,"olog":387,"ology":388,"ding":389,"ood":390,"Ġap":391,"sol":392,"utely":393,"solutely":394,"Ġso":395,"lly":396,"ure":397,"Ġreally":398,"Ġan":399,"Ġinto":400,"Ġabsolutely":401,"Ġfond":402,"la":403,"ful":404,"ur":405,"ast":406,"Ġmu":407,"Ġheard":408,"ci":409,"Ġfu":410,"ĠF":411,"ĠV":412,"Ġfor":413,"ĠVery":414,"ass":415,"Ġco":416,"ĠW":417,"Ġmo":418,"es":419,"Ġfe":420,"ch":421,"Ġeng":422,"Ġfeel":423,"mp":424,"ed":425,"Ġcan":426,"akes":427,"king":428,"ish":429,"ous":430,"Ġyour":431,"sy":432,"red":433,"Ġeating":434,"Ġapp":435,"ive":436,"Ġhave":437,"ag":438,"ĠIt":439,"erful":440,"onderful":441,"Ġwonderful":442,"th":443,"Ġsee":444,"ĠE":445,"ious":446,"ill":447,"Ġcoo":448,"ow":449,"ĠWhat":450,"ting":451,"ry":452,"Ġhi":453,"Ġway":454,"ep":455,"um":456,"Ġex":457,"Ġsome":458,"thing":459,"ly":460,"ith":461,"Ġwith":462,"reci":463,"ib":464,"ics":465,"Ġappreci":466,"Ġappreciate":467,"Ġsomething":468,"Ġfant":469,"Ġinteresting":470,"astic":471,"lax":472,"Ġfantastic":473,"Ġrelax":474,"inat":475,"cinat":476,"cinating":477,"Ġwhy":478,"arding":479,"Ġtakes":480,"Ġsa":481,"Ġengag":482,"Ġengaging":483,"ld":484,"one":485,"Ġcou":486,"Ġthe":487,"ac":488,"Ġpur":489,"Ġbe":490,"Ġfun":491,"ay":492,"Ġmore":493,"Ġany":494,"Ġcool":495,"ĠY":496,"Ġke":497,"'d":498,"ĠEx":499,"Ġkeep":500,"Ġr":501,"Ġexp":502,"Ġcreat":503,"Ġbu":504,"erience":505,"Ġexperience":506,"Ġsk":507,"Ġpat":508,"ĠExc":509,"Ġinc":510,"Ġmust":511,"Ġcould":512,"Ġskill":513,"su":514,"Ġanyone":515,"Ġcreative":516,"warding":517,"elle":518,"oble":519,"Ġrewarding":520,"redib":521,"Ġincredib":522,"Ġpass":523,"Ġnoble":524,"Ġpatience":525,"suit":526,"ellent":527,"Ġpassion":528,"al":529,"Ġwish":530,"ascinating":531,"ĠFascinating":532,"Ġrelaxing":533,"Ġpursuit":534,"Ġbusy":535,"ĠExcellent":536,"Ġincredibly":537,"ling":538,"'t":539,"rit":540,"om":541,"Ġdo":542,"ig":543,"Ġbut":544,"Ġwant":545,"os":546,"Ġfeeling":547,"ans":548,"im":549,"Ġar":550,"Ġsc":551,"et":552,"ope":553,"ature":554,"ming":555,"Ġbi":556,"Ġph":557,"onom":558,"phy":559,"ĠB":560,"Ġimp":561,"Ġhope":562,"ĠM":563,"ĠS":564,"Ġhad":565,"Ġfood":566,"ct":567,"ving":568,"ked":569,"Ġdon":570,"Ġcra":571,"Ġcraving":572,"Ġate":573,"Ġbake":574,"Ġcooked":575,"Ġbaked":576,"ta":577,"orta":578,"Ġimporta":579,"Ġimportant":580,"Ġhum":581,"Ġwhat":582,"ies":583,"Ġte":584,"Ġpa":585,"Ġcol":586,"Ġcolor":587,"les":588,"ht":589,"Ġhumans":590,"Ġk":591,"ning":592,"Ġsure":593,"Ġkn":594,"Ġcl":595,"Ġpo":596,"assic":597,"Ġclassic":598,"ink":599,"icious":600,"elicious":601,"Ġevery":602,"ff":603,"Ġdelicious":604,"umm":605,"tit":606,"Ġenjoyed":607,"ĠYumm":608,"ĠSounds":609,"ĠYummy":610,"il":611,"petit":612,"Ġappetit":613,"ĠFood":614,"ine":615,"Ġbite":616,"utrit":617,"Ġnutrit":618,"Ġfuel":619,"ĠMake":620,"Ġnutritious":621,"Ġtreat":622,"Ġsavor":623,"ĠBon":624,"Ġtra":625,"ell":626,"ight":627,"str":628,"se":629,"rea":630,"ĠG":631,"un":632,"Ġst":633,"lad":634,"ation":635,"Ġmov":636,"Ġgo":637,"ĠTh":638,"Ġthink":639,"ory":640,"ds":641,"Ġnow":642,"Ġcy":643,"Ġpain":644,"ist":645,"day":646,"Ġsw":647,"Ġme":648,"Ġsp":649,"als":650,"Ġca":651,"Ġin":652,"Ġtoday":653,"Ġart":654,"Ġba":655,"ace":656,"Ġgoing":657,"sic":658,"Ġcat":659,"Ġga":660,"Ġwrit":661,"Ġmusic":662,"Ġpainting":663,"em":664,"ath":665,"Ġreading":666,"ars":667,"Ġge":668,"Ġanim":669,"Ġmovies":670,"Ġwriting":671,"Ġlit":672,"Ġbest":673,"story":674,"Ġdog":675,"Ġhistory":676,"Ġrun":677,"Ġnature":678,"chn":679,"Ġtrave":680,"Ġfish":681,"Ġbir":682,"Ġcats":683,"Ġanimals":684,"chnology":685,"Ġmed":686,"itting":687,"mping":688,"Ġtechnology":689,"Ġpoet":690,"Ġastr":691,"Ġsing":692,"itation":693,"Ġbac":694,"ogra":695,"Ġcooking":696,"Ġhiking":697,"onomy":698,"Ġspace":699,"Ġcamping":700,"Ġdogs":701,"Ġbirds":702,"Ġastronomy":703,"ce":704,"wing":705,"erature":706,"Ġec":707,"Ġmath":708,"Ġpol":709,"Ġpsy":710,"Ġdra":711,"itect":712,"ulp":713,"Ġcoding":714,"chitect":715,"ign":716,"oso":717,"imming":718,"Ġarchitect":719,"Ġscience":720,"Ġphot":721,"Ġswimming":722,"Ġliterature":723,"Ġpoetry":724,"Ġpsych":725,"Ġarchitecture":726,"anc":727,"cling":728,"sics":729,"ering":730,"Ġcars":731,"itics":732,"Ġyog":733,"Ġphy":734,"Ġdes":735,"Ġdanc":736,"Ġfash":737,"Ġchem":738,"Ġsoci":739,"Ġengine":740,"Ġsculp":741,"Ġbiology":742,"Ġphil":743,"onomics":744,"Ġknitting":745,"Ġcycling":746,"istry":747,"Ġbaking":748,"Ġgaming":749,"Ġgeology":750,"Ġrunning":751,"Ġtraveling":752,"Ġfishing":753,"Ġmeditation":754,"Ġsinging":755,"ography":756,"Ġeconomics":757,"Ġpolitics":758,"Ġdrawing":759,"osophy":760,"Ġphotography":761,"Ġpsychology":762,"Ġyoga":763,"Ġphysics":764,"Ġdesign":765,"Ġdancing":766,"Ġfashion":767,"Ġchemistry":768,"Ġsociology":769,"Ġengineering":770,"Ġsculpting":771,"Ġphilosophy":772,"Ġright":773,"pp":774,"Ġbee":775,"Ġbeen":776,"Ġlat":777,"Ġyes":778,"ppy":779,"Ġhappy":780,"Ġlately":781,"ea":782,"ĠH":783,"ere":784,"Ġcur":785,"ver":786,"Ġne":787,"en":788,"ple":789,"Ġare":790,"qu":791,"Ġqu":792,"Ġnew":793,"Ġwill":794,"ĠP":795,"Ġu":796,"Ġglad":797,"ĠYes":798,"Ġgood":799,"ome":800,"Ġquite":801,"iz":802,"Ġon":803,"erg":804,"Ġenerg":805,"kay":806,"za":807,"ich":808,"Ġbea":809,"ream":810,"izza":811,"ĠO":812,"eep":813,"ĠThe":814,"Ġsu":815,"Ġbeaut":816,"Ġpos":817,"Ġpizza":818,"ers":819,"Ġpast":820,"Ġbeauti":821,"Ġbrea":822,"Ġbeautiful":823,"itive":824,"Ġpositive":825,"Ġpasta":826,"ata":827,"Ġsou":828,"shi":829,"Ġcook":830,"wich":831,"ins":832,"ndwich":833,"ated":834,"Ġsandwich":835,"Ġal":836,"ard":837,"ach":838,"Ġpie":839,"Ġdata":840,"ncakes":841,"Ġpancakes":842,"Ġsushi":843,"ump":844,"ind":845,"ken":846,"gg":847,"ĠR":848,"icken":849,"Ġchicken":850,"Ġsalad":851,"Ġsoup":852,"eo":853,"row":854,"Ġcake":855,"Ġhard":856,"Ġegg":857,"Ġtoast":858,"Ġnood":859,"Ġchee":860,"Ġrice":861,"Ġbread":862,"Ġeggs":863,"col":864,"gers":865,"Ġice":866,"Ġtac":867,"Ġcream":868,"Ġban":869,"Ġbur":870,"Ġdump":871,"anas":872,"Ġchocol":873,"Ġwaff":874,"Ġmuff":875,"Ġapples":876,"Ġbeans":877,"lings":878,"Ġteach":879,"Ġstea":880,"Ġbacon":881,"Ġcurry":882,"Ġcookies":883,"Ġsandwiches":884,"eople":885,"Ġnoodles":886,"Ġcheese":887,"Ġtacos":888,"Ġbananas":889,"Ġburgers":890,"Ġdumplings":891,"Ġchocolate":892,"Ġwaffles":893,"Ġmuffins":894,"Ġsteak":895,"Ġtoo":896,"Ġv":897,"and":898,"ings":899,"nder":900,"Ġseem":901,"Ġunder":902,"stand":903,"ĠYou":904,"Ġunderstand":905,"Ġpr":906,"Ġfr":907,"way":908,"ank":909,"Ġknow":910,"ri":911,"ĠD":912,"Ġlear":913,"Ġwor":914,"ways":915,"Ġback":916,"az":917,"Ġcon":918,"Ġokay":919,"Ġalways":920,"ĠTake":921,"ree":922,"ĠGood":923,"ue":924,"Ġdi":925,"pul":926,"wes":927,"Ġpopul":928,"wesome":929,"Ġpopular":930,"Ġlearn":931,"rant":932,"ibrant":933,"Ġappreciated":934,"Ġstri":935,"Ġvibrant":936,"Ġstriking":937,"mb":938,"Ġag":939,"Ġhere":940,"leep":941,"'re":942,"ĠK":943,"ck":944,"fe":945,"Ġchat":946,"Ġday":947,"ĠHow":948,"ĠKeep":949,"Ġtal":950,"Ġhow":951,"any":952,"Ġsh":953,"Ġtell":954,"race":955,"Ġexc":956,"Ġenergy":957,"'ll":958,"ĠC":959,"ract":960,"ĠAwesome":961,"ĠEmb":962,"Ġnews":963,"ĠEmbrace":964,"sp":965,"ter":966,"Ġtired":967,"ense":968,"Ġsleep":969,"Ġsense":970,"Ġpract":971,"Ġpractice":972,"ght":973,"Ġmany":974,"Ġwas":975,"ĠN":976,"Ġlon":977,"ang":978,"spi":979,"Ġbo":980,"us":981,"erfe":982,"oud":983,"ited":984,"Ġproud":985,"Ġtalk":986,"erfect":987,"njoy":988,"Ġinspi":989,"Ġexcited":990,"iv":991,"med":992,"Ġover":993,"age":994,"ĠEnjoy":995,"Ġif":996,"Ġfind":997,"Ġbr":998,"Ġagree":999,"Ġjoy":1000,"Ġtrain":1001,"Ġbored":1002,"ab":1003,"sel":1004,"scinating":1005,"Ġcal":1006,"Ġget":1007,"Ġfascinating":1008,"etic":1009,"Ġcurious":1010,"Ġenergetic":1011,"azy":1012,"Ġinspired":1013,"self":1014,"gry":1015,"Ġlazy":1016,"Ġreg":1017,"Ġrelaxed":1018,"Ġsad":1019,"Ġsleepy":1020,"Ġcalm":1021,"hel":1022,"whel":1023,"erv":1024,"otiv":1025,"ought":1026,"nding":1027,"Ġmotiv":1028,"ons":1029,"Ġthings":1030,"ĠAI":1031,"Ġlonely":1032,"used":1033,"Ġoverwhel":1034,"Ġmotivated":1035,"fused":1036,"ustr":1037,"xious":1038,"ĠL":1039,"Ġim":1040,"Ġpeople":1041,"Ġperfect":1042,"Ġnerv":1043,"Ġangry":1044,"Ġanxious":1045,"Ġyourself":1046,"Ġhopeful":1047,"ffere":1048,"Ġfrustr":1049,"Ġconfused":1050,"Ġdiffere":1051,"Ġoverwhelmed":1052,"Ġnervous":1053,"Ġfrustrated":1054,"tter":1055,"Ġthought":1056,"Ġbetter":1057,"Ġbrings":1058,"Ġtraining":1059,"lue":1060,"orrow":1061,"Ġtop":1062,"agine":1063,"Ġworth":1064,"Ġse":1065,"old":1066,"Ġreas":1067,"Ġinterested":1068,"ĠAs":1069,"Ġimagine":1070,"Ġdifferent":1071,"Ġset":1072,"reen":1073,"Ġbreat":1074,"lack":1075,"ĠWell":1076,"ĠPeople":1077,"Ġseems":1078,"Ġregarding":1079,"Ġtopic":1080,"Ġreasons":1081,"Ġbreath":1082,"is":1083,"ĠDon":1084,"ange":1085,"Ġthoughts":1086,"vy":1087,"Ġsor":1088,"ĠTom":1089,"Ġdeep":1090,"Ġsorry":1091,"ĠTomorrow":1092,"oon":1093,"rove":1094,"nta":1095,"Ġthank":1096,"Ġimprove":1097,"ĠThings":1098,"Ġsending":1099,"avy":1100,"hite":1101,"aroon":1102,"ray":1103,"ilver":1104,"ellow":1105,"ĠThank":1106,"rown":1107,"agenta":1108,"ello":1109,"able":1110,"dy":1111,"Ġlist":1112,"inking":1113,"Ġwe":1114,"Ġwell":1115,"Ġthinking":1116,"Ġmor":1117,"Ġmorning":1118,"mple":1119,"eal":1120,"id":1121,"eed":1122,"ime":1123,"Ġ\"":1124,"Ġshar":1125,"Ġunderstandable":1126,"come":1127,"ening":1128,"mal":1129,"art":1130,"Ġmovie":1131,"Ġfrie":1132,"Ġperfectly":1133,"Ġlistening":1134,"ormal":1135,"Ġnormal":1136,"ĠMakes":1137,"ĠOkay":1138,"Ġthanks":1139,"Ġsharing":1140,"Ġmakes":1141,"elcome":1142,"azing":1143,"ey":1144,"Ġor":1145,"atch":1146,"Ġtr":1147,"Ġnight":1148,"ess":1149,"vers":1150,"Ġblue":1151,"Ġamazing":1152,"rse":1153,"Ġ(":1154,"Ġone":1155,"Ġcourse":1156,"ĠGreat":1157,"ir":1158,"Ġhel":1159,"Ġmind":1160,"Ġred":1161,"Ġthere":1162,"ĠOf":1163,"ĠThey":1164,"Ġtrue":1165,"Ġhelp":1166,"Ġblack":1167,"Ġgreen":1168,"Ġcomple":1169,"ĠHello":1170,"ĠOr":1171,"ĠNot":1172,"bsolutely":1173,"Ġwatch":1174,"Ġde":1175,"ieve":1176,"Ġnot":1177,"ĠAbsolutely":1178,"Ġthey":1179,"ĠRight":1180,"tely":1181,"ould":1182,"ndeed":1183,"ĠIndeed":1184,"ĠBlack":1185,"ĠGot":1186,"ĠGreen":1187,"ĠPur":1188,"ĠRed":1189,"Ġcompletely":1190,"ĠNoted":1191,"live":1192,"yan":1193,"Ġol":1194,"Ġun":1195,"Ġsilver":1196,"ĠTeal":1197,"Ġmaroon":1198,"Ġmagenta":1199,"Ġwh":1200,"Ġwhite":1201,"Ġyellow":1202,"Ġpink":1203,"Ġbrown":1204,"Ġlime":1205,"Ġgold":1206,"Ġgray":1207,"Ġnavy":1208,"ĠWhite":1209,"Ġpurple":1210,"ĠYellow":1211,"ĠBlue":1212,"ĠBrown":1213,"ĠMaroon":1214,"ĠMagenta":1215,"ĠSilver":1216,"Ġteal":1217,"ĠGold":1218,"ĠGray":1219,"Ġcyan":1220,"ĠPink":1221,"ĠOlive":1222,"Ġconvers":1223,"Ġdid":1224,"ĠCyan":1225,"ĠNavy":1226,"ĠLime":1227,"Ġorange":1228,"ĠOrange":1229,"ĠPurple":1230,"Ġolive":1231,"Ġconversation":1232,"ye":1233,"ook":1234,"Ġfriend":1235,"Ġbel":1236,"tings":1237,"act":1238,"ĠRea":1239,"be":1240,"xt":1241,"Ġj":1242,"oth":1243,"Ġbook":1244,"ment":1245,"Ġnice":1246,"aybe":1247,"ĠReady":1248,"ap":1249,"Ġmaybe":1250,"Ġno":1251,"Ġnext":1252,"Ġup":1253,"reetings":1254,"Ġbelieve":1255,"Ġread":1256,"au":1257,"ain":1258,"ny":1259,"Ġtry":1260,"Ġwr":1261,"ĠBu":1262,"ĠHa":1263,"Ġwork":1264,"actly":1265,"de":1266,"Ġlu":1267,"Ġwelcome":1268,"Ġdoing":1269,"Ġkind":1270,"Ġstart":1271,"Ġfin":1272,"Ġpl":1273,"Ġthis":1274,"ĠWelcome":1275,"ĠGo":1276,"Ġuni":1277,"ĠBuon":1278,"he":1279,"ner":1280,"Ġmake":1281,"ity":1282,"Ġwow":1283,"eet":1284,"Ġseen":1285,"Ġwhen":1286,"other":1287,".\"":1288,"fin":1289,"imple":1290,"lse":1291,"Ġid":1292,"res":1293,"Ġhello":1294,"Ġhey":1295,"Ġelse":1296,"Ġyea":1297,"Ġpla":1298,"Ġdream":1299,"Ġdoes":1300,"Ġstory":1301,"Ġmean":1302,"ĠHi":1303,"ĠDid":1304,"Ġlearning":1305,"Ġshould":1306,"Ġwrite":1307,"ĠHave":1308,"Ġyeah":1309,"ne":1310,"time":1311,"ound":1312,"resh":1313,"Ġfut":1314,"Ġma":1315,"iting":1316,"obab":1317,"Ġrec":1318,"Ġmyst":1319,"Ġdin":1320,"Ġneed":1321,"Ġwal":1322,"Ġexactly":1323,"ĠSee":1324,"ĠGreetings":1325,"ĠHey":1326,"ĠRest":1327,"Ġpro":1328,"Ġprobab":1329,"Ġagain":1330,"angu":1331,"Ġfriends":1332,"Ġdefin":1333,"Ġfinish":1334,"Ġidea":1335,"ress":1336,"Ġfuture":1337,"Ġprobably":1338,"Ġdefinit":1339,"?)":1340,"The":1341,"ge":1342,"pt":1343,"ust":1344,"Ġout":1345,"Ġawesome":1346,"Ġsun":1347,"Ġlangu":1348,"Ġyep":1349,"Ġnope":1350,"ions":1351,"ctive":1352,"Ġbad":1353,"Ġbreak":1354,"Ġvis":1355,"Ġwalk":1356,"Ġdefinitely":1357,"cc":1358,"gh":1359,"thy":1360,"ĠJ":1361,"Ġad":1362,"Ġeve":1363,"Ġbye":1364,"Ġref":1365,"mend":1366,"asy":1367,"ĠWe":1368,"ommend":1369,"ett":1370,"ĠBut":1371,"ĠSleep":1372,"Ġsweet":1373,"ĠDo":1374,"ealthy":1375,"Ġrecommend":1376,"Ġdinner":1377,"..":1378,"ame":1379,"all":1380,"du":1381,"fast":1382,"ha":1383,"ian":1384,"ater":1385,"Ġtake":1386,"our":1387,"Ġsm":1388,"ong":1389,"Ġhaha":1390,"Ġfull":1391,"Ġthem":1392,"Ġluck":1393,"Ġplan":1394,"Ġplay":1395,"times":1396,"Ġlanguage":1397,"ape":1398,"eace":1399,"ever":1400,"ft":1401,"Ġall":1402,"Ġcle":1403,"Ġhol":1404,"Ġbed":1405,"ick":1406,"Ġlife":1407,"Ġoce":1408,"Ġanother":1409,"ĠWh":1410,"Ġfunny":1411,"ose":1412,"ĠBye":1413,"Ġhuman":1414,"ready":1415,"ĠThen":1416,"Ġquest":1417,"Ġus":1418,"Ġalready":1419,"Ġworld":1420,"Ġwords":1421,"ĠLear":1422,"Ġjust":1423,"Ġbreakfast":1424,"ductive":1425,"Ġocean":1426,"\"?":1427,"How":1428,"are":1429,"ance":1430,"ip":1431,"ph":1432,"Ġat":1433,"Ġjo":1434,"serve":1435,"Ġaf":1436,"Ġas":1437,"Ġsimple":1438,"ret":1439,"Ġla":1440,"ĠIs":1441,"Ġending":1442,"Ġwould":1443,"Ġpart":1444,"Ġlovely":1445,"ary":1446,"Ġsoon":1447,"ĠEvery":1448,"ĠSp":1449,"ction":1450,"Ġpaint":1451,"verse":1452,"ĠPerfect":1453,"Ġlearned":1454,"ĠCh":1455,"ĠCome":1456,"Ġlong":1457,"iss":1458,"Ġmyster":1459,"Ġvisit":1460,"Ġevening":1461,"ĠLearning":1462,"Ġjoke":1463,"!)":1464,"ally":1465,"ent":1466,"ore":1467,"ro":1468,"ror":1469,"ten":1470,"uess":1471,"ya":1472,"Ġhous":1473,"Ġeasy":1474,"Ġyo":1475,"Ġpeace":1476,"Ġby":1477,"ors":1478,"Ġgra":1479,"Ġgreetings":1480,"Ġguess":1481,"obot":1482,"Ġrest":1483,"nch":1484,"Ġnap":1485,"leas":1486,"Ġmuch":1487,"Ġcomp":1488,"Ġmost":1489,"Ġhaven":1490,"ĠItal":1491,"ĠWhatever":1492,"Ġhiya":1493,"ĠMe":1494,"Ġgame":1495,"Ġlater":1496,"ead":1497,"ĠHealthy":1498,"Ġhowdy":1499,"Ġexciting":1500,"irst":1501,"Ġdeserve":1502,"apan":1503,"Ġlunch":1504,"Ġuniverse":1505,"Ġdreams":1506,"Ġmeaning":1507,"Ġmade":1508,"Ġproductive":1509,"ĠJapan":1510,"Ġrefresh":1511,"Ġclean":1512,"Ġquestions":1513,"Ġmysterious":1514,"Ġhouse":1515,"ĠItalian":1516,"Good":1517,"Qu":1518,"ant":1519,"ared":1520,"cau":1521,"ise":1522,"ift":1523,"so":1524,"sid":1525,"te":1526,"ura":1527,"ument":1528,"Ġra":1529,"ĠQu":1530,"Ġtast":1531,"Ġhas":1532,"Ġfil":1533,"Ġfirst":1534,"vent":1535,"Ġmast":1536,"Ġmiss":1537,"Ġpleas":1538,"ort":1539,"oll":1540,"olph":1541,"Ġgr":1542,"Ġgift":1543,"Ġnat":1544,"Ġname":1545,"Ġspeci":1546,"Ġcomed":1547,"Ġsometimes":1548,"Ġsaid":1549,"Ġscared":1550,"Ġimpress":1551,"ĠSome":1552,"Ġeverything":1553,"ffee":1554,"Ġgoal":1555,"Ġgoals":1556,"Ġmem":1557,"Ġmeans":1558,"ather":1559,"Ġalso":1560,"Ġconne":1561,"Ġshow":1562,"ghter":1563,"ĠLau":1564,"ĠBuona":1565,"Ġafter":1566,"Ġpeaceful":1567,"cause":1568,"Ġfilm":1569,"Ġmaster":1570,"olphins":1571,"Ġcomedy":1572,"Ġconnection":1573,"ble":1574,"do":1575,"der":1576,"del":1577,"end":1578,"for":1579,"fett":1580,"hett":1581,"head":1582,"ial":1583,"mi":1584,"ney":1585,"ock":1586,"ring":1587,"ration":1588,"set":1589,"tle":1590,"ture":1591,"Ġour":1592,"erfett":1593,"ote":1594,"otte":1595,"Ġach":1596,"Ġacc":1597,"Ġahead":1598,"rent":1599,"Ġlet":1600,"Ġlau":1601,"Ġfi":1602,"Ġfl":1603,"Ġfresh":1604,"ities":1605,"Ġwee":1606,"Ġwater":1607,"Ġpow":1608,"Ġbl":1609,"orn":1610,"ories":1611,"ical":1612,"Ġtoge":1613,"Ġgrow":1614,"Ġrem":1615,"Ġdolphins":1616,"anotte":1617,"ooking":1618,"ask":1619,"ĠAll":1620,"ĠAny":1621,"Ġcom":1622,"Ġcont":1623,"ĠWas":1624,"Ġmodel":1625,"ese":1626,"Ġfew":1627,"aghett":1628,"ther":1629,"ibil":1630,"Ġsaw":1631,"Ġbeing":1632,"ĠExactly":1633,"Ġbuon":1634,"ĠMy":1635,"ĠSt":1636,"ĠSimple":1637,"Ġpoem":1638,"Ġstories":1639,"Ġcall":1640,"Ġlittle":1641,"Ġtravel":1642,"ĠPerfett":1643,"Ġval":1644,"Ġfrom":1645,"Ġagend":1646,"Ġtalking":1647,"Ġbody":1648,"Ġregret":1649,"Ġweather":1650,"Ġwho":1651,"Ġjob":1652,"Ġjour":1653,"Ġuniqu":1654,"Ġmystery":1655,"Ġfinished":1656,"Ġadvent":1657,"...":1658,"Ġsmall":1659,"side":1660,"ural":1661,"ĠQuick":1662,"Ġnatural":1663,"Ġimpressive":1664,"Ġmemory":1665,"ĠLaughter":1666,"Ġachieve":1667,"Ġlaugh":1668,"Ġtogether":1669,"aghetti":1670,"ĠPerfetto":1671,"Ġagenda":1672,"Ġjourney":1673,"ax":1674,"bot":1675,"cess":1676,"cape":1677,"eck":1678,"ecause":1679,"fy":1680,"ile":1681,"irit":1682,"lish":1683,"morrow":1684,"ng":1685,"ned":1686,"ness":1687,"pie":1688,"pose":1689,"rat":1690,"rie":1691,"rink":1692,"sw":1693,"sibil":1694,"ude":1695,"ward":1696,"zie":1697,"ĠU":1698,"Ġother":1699,"era":1700,"erci":1701,"ined":1702,"Ġtri":1703,"Ġtask":1704,"ough":1705,"Ġlol":1706,"Ġline":1707,"Ġlea":1708,"Ġless":1709,"ĠIn":1710,"Ġhealthy":1711,"Ġfla":1712,"Ġfound":1713,"ves":1714,"ĠTV":1715,"Ġes":1716,"Ġear":1717,"Ġever":1718,"Ġwon":1719,"nter":1720,"orre":1721,"ords":1722,"orror":1723,"eld":1724,"elax":1725,"Ġtomorrow":1726,"ark":1727,"aract":1728,"Ġenough":1729,"Ġret":1730,"Ġdone":1731,"pen":1732,"Ġoften":1733,"Ġits":1734,"ient":1735,"anish":1736,"Ġcheck":1737,"ogress":1738,"Ġheart":1739,"Ġreal":1740,"ĠAn":1741,"ĠAr":1742,"ĠAnd":1743,"Ġansw":1744,"ĠFrie":1745,"Ġcoffee":1746,"ĠWor":1747,"ĠWhy":1748,"ĠWatch":1749,"ages":1750,"own":1751,"Ġwithout":1752,"Ġsame":1753,"oney":1754,"Ġcount":1755,"Ġtheir":1756,"ack":1757,"Ġpurpose":1758,"Ġbene":1759,"Ġanything":1760,"Ġrobot":1761,"Ġroll":1762,"ĠExciting":1763,"osa":1764,"imo":1765,"ĠBecause":1766,"ĠSh":1767,"ĠSun":1768,"Ġcolors":1769,"sent":1770,"Ġstars":1771,"ations":1772,"ĠThis":1773,"ists":1774,"Ġswords":1775,"Ġspirit":1776,"Ġcare":1777,"Ġgen":1778,"pport":1779,"ereal":1780,"Ġquick":1781,"ĠPr":1782,"Ġsucc":1783,"Ġpossibil":1784,"erson":1785,"ĠRe":1786,"ĠRelax":1787,"ĠDelicious":1788,"ĠDream":1789,"Ġchatbot":1790,"Ġtalked":1791,"Ġshare":1792,"ĠCl":1793,"Ġtrained":1794,"versal":1795,"Ġhelps":1796,"Ġconversations":1797,"Ġwrote":1798,"Ġuniversal":1799,"Ġplant":1800,"Ġmaking":1801,"Ġoutdo":1802,"Ġsunny":1803,"Ġsmart":1804,"Ġholes":1805,"ĠWhich":1806,"ĠSpanish":1807,"Ġgrazie":1808,"Ġcompany":1809,"ĠJapanese":1810,"Ġrefreshing":1811,"Ġtaste":1812,"Ġpleasure":1813,"Ġspecial":1814,"ĠSometimes":1815,"Ġmasterpie":1816,"forting":1817,"mily":1818,"Ġfield":1819,"Ġpowerful":1820,"Ġvalu":1821,"Ġunique":1822,"Ġadventure":1823,"fying":1824,"Ġtrip":1825,"Ġearned":1826,"aracters":1827,"ĠFriends":1828,"Ġpossibilities":1829,"Ġoutdoors":1830,"Ġmasterpiece":1831,"ad":1832,"aly":1833,"bu":1834,"bye":1835,"cou":1836,"cus":1837,"cument":1838,"dles":1839,"ew":1840,"fi":1841,"fic":1842,"fish":1843,"gin":1844,"hing":1845,"hip":1846,"iorn":1847,"lu":1848,"lways":1849,"loth":1850,"lock":1851,"mo":1852,"mon":1853,"mazing":1854,"op":1855,"oy":1856,"omp":1857,"ored":1858,"oil":1859,"pri":1860,"rot":1861,"rite":1862,"rill":1863,"rist":1864,"to":1865,"ty":1866,"uck":1867,"vir":1868,"weet":1869,"Ġ1":1870,"Ġold":1871,"erlock":1872,"ato":1873,"atis":1874,"Ġair":1875,"ining":1876,"inds":1877,"inue":1878,"iness":1879,"incess":1880,"Ġta":1881,"oup":1882,"Ġsy":1883,"Ġsur":1884,"Ġsci":1885,"Ġsatis":1886,"Ġcereal":1887,"Ġher":1888,"Ġhorror":1889,"Ġhoney":1890,"Ġfo":1891,"Ġfar":1892,"Ġfine":1893,"kend":1894,"ĠTe":1895,"ĠTal":1896,"Ġend":1897,"Ġeach":1898,"Ġmag":1899,"Ġmet":1900,"Ġmir":1901,"itude":1902,"Ġwise":1903,"Ġpar":1904,"Ġpreci":1905,"Ġpian":1906,"Ġperson":1907,"Ġbit":1908,"Ġbill":1909,"Ġbig":1910,"icine":1911,"icture":1912,"ster":1913,"stell":1914,"Ġlif":1915,"Ġlive":1916,"onment":1917,"Ġencou":1918,"Ġenvir":1919,"Ġgot":1920,"Ġrel":1921,"Ġres":1922,"Ġresp":1923,"Ġdrink":1924,"ndscape":1925,"Ġthan":1926,"Ġthrill":1927,"Ġhobbies":1928,"utum":1929,"led":1930,"voro":1931,"Ġchange":1932,"Ġcharacters":1933,"ogn":1934,"rand":1935,"rave":1936,"rage":1937,"Ġhap":1938,"Ġwait":1939,"ateful":1940,"shine":1941,"ĠAre":1942,"ĠAlways":1943,"ĠAmazing":1944,"ione":1945,"asta":1946,"ĠFear":1947,"ĠFitting":1948,"Ġform":1949,"assics":1950,"Ġcome":1951,"Ġcomb":1952,"ĠWould":1953,"ĠWater":1954,"ĠWrite":1955,"Ġmoment":1956,"ched":1957,"ĠItaly":1958,"Ġhike":1959,"Ġexerci":1960,"Ġfantasy":1961,"Ġtheme":1962,"Ġbegin":1963,"Ġrid":1964,"omance":1965,"Ġdocument":1966,"Ġaround":1967,"Ġscrit":1968,"Ġscary":1969,"ĠMore":1970,"ĠSo":1971,"ĠSu":1972,"ĠShe":1973,"Ġparent":1974,"ilding":1975,"strument":1976,"Ġstep":1977,"Ġmeal":1978,"Ġspaghetti":1979,"Ġcapt":1980,"Ġinstrument":1981,"Ġanimal":1982,"Ġmedicine":1983,"ĠHot":1984,"ĠHol":1985,"ĠHobb":1986,"ĠPizza":1987,"ĠPain":1988,"Ġbeach":1989,"Ġsupport":1990,"Ġsound":1991,"Ġpiece":1992,"ĠRip":1993,"ĠRobot":1994,"Ġvast":1995,"Ġprogress":1996,"ĠGoodbye":1997,"Ġdis":1998,"Ġshe":1999,"Ġshape":2000,"ĠCo":2001,"ĠCom":2002,"ĠCorre":2003,"tern":2004,"ĠNice":2005,"ĠNature":2006,"spiration":2007,"Ġbright":2008,"ĠLet":2009,"ĠLuck":2010,"Ġdifference":2011,"Ġthoughtful":2012,"Ġweir":2013,"ealth":2014,"Ġshark":2015,"Ġorder":2016,"Ġnothing":2017,"Ġunp":2018,"Ġfinding":2019,"ĠGoals":2020,"ĠBuonanotte":2021,"Ġdoesn":2022,"Ġprof":2023,"ptim":2024,"Ġoutside":2025,"Ġsunset":2026,"Ġvisione":2027,"Ġeven":2028,"Ġrefle":2029,"Ġlavoro":2030,"ĠChrist":2031,"Ġrefreshed":2032,"Ġmission":2033,"Ġgrateful":2034,"Ġaccomp":2035,"Ġletter":2036,"Ġweekend":2037,"Ġblood":2038,"Ġcomforting":2039,"Ġcontinue":2040,"Ġregrets":2041,"Ġlaughed":2042,"lished":2043,"ngth":2044,"ĠInspiration":2045,"Ġessent":2046,"Ġanswer":2047}