{"<|endoftext|>":0,"!":1,"\"":2,"#":3,"$":4,"%":5,"&":6,"'":7,"(":8,")":9,"*":10,"+":11,",":12,"-":13,".":14,"/":15,"0":16,"1":17,"2":18,"3":19,"4":20,"5":21,"6":22,"7":23,"8":24,"9":25,":":26,";":27,"<":28,"=":29,">":30,"?":31,"@":32,"A":33,"B":34,"C":35,"D":36,"E":37,"F":38,"G":39,"H":40,"I":41,"J":42,"K":43,"L":44,"M":45,"N":46,"O":47,"P":48,"Q":49,"R":50,"S":51,"T":52,"U":53,"V":54,"W":55,"X":56,"Y":57,"Z":58,"[":59,"\\":60,"]":61,"^":62,"_":63,"`":64,"a":65,"b":66,"c":67,"d":68,"e":69,"f":70,"g":71,"h":72,"i":73,"j":74,"k":75,"l":76,"m":77,"n":78,"o":79,"p":80,"q":81,"r":82,"s":83,"t":84,"u":85,"v":86,"w":87,"x":88,"y":89,"z":90,"{":91,"|":92,"}":93,"~":94,"¡":95,"¢":96,"£":97,"¤":98,"¥":99,"¦":100,"§":101,"¨":102,"©":103,"ª":104,"«":105,"¬":106,"®":107,"¯":108,"°":109,"±":110,"²":111,"³":112,"´":113,"µ":114,"¶":115,"·":116,"¸":117,"¹":118,"º":119,"»":120,"¼":121,"½":122,"¾":123,"¿":124,"À":125,"Á":126,"Â":127,"Ã":128,"Ä":129,"Å":130,"Æ":131,"Ç":132,"È":133,"É":134,"Ê":135,"Ë":136,"Ì":137,"Í":138,"Î":139,"Ï":140,"Ð":141,"Ñ":142,"Ò":143,"Ó":144,"Ô":145,"Õ":146,"Ö":147,"×":148,"Ø":149,"Ù":150,"Ú":151,"Û":152,"Ü":153,"Ý":154,"Þ":155,"ß":156,"à":157,"á":158,"â":159,"ã":160,"ä":161,"å":162,"æ":163,"ç":164,"è":165,"é":166,"ê":167,"ë":168,"ì":169,"í":170,"î":171,"ï":172,"ð":173,"ñ":174,"ò":175,"ó":176,"ô":177,"õ":178,"ö":179,"÷":180,"ø":181,"ù":182,"ú":183,"û":184,"ü":185,"ý":186,"þ":187,"ÿ":188,"Ā":189,"ā":190,"Ă":191,"ă":192,"Ą":193,"ą":194,"Ć":195,"ć":196,"Ĉ":197,"ĉ":198,"Ċ":199,"ċ":200,"Č":201,"č":202,"Ď":203,"ď":204,"Đ":205,"đ":206,"Ē":207,"ē":208,"Ĕ":209,"ĕ":210,"Ė":211,"ė":212,"Ę":213,"ę":214,"Ě":215,"ě":216,"Ĝ":217,"ĝ":218,"Ğ":219,"ğ":220,"Ġ":221,"ġ":222,"Ģ":223,"ģ":224,"Ĥ":225,"ĥ":226,"Ħ":227,"ħ":228,"Ĩ":229,"ĩ":230,"Ī":231,"ī":232,"Ĭ":233,"ĭ":234,"Į":235,"į":236,"İ":237,"ı":238,"Ĳ":239,"ĳ":240,"Ĵ":241,"ĵ":242,"Ķ":243,"ķ":244,"ĸ":245,"Ĺ":246,"ĺ":247,"Ļ":248,"ļ":249,"Ľ":250,"ľ":251,"Ŀ":252,"ŀ":253,"Ł":254,"ł":255,"Ń":256,"er":257,"Ġi":258,"ot":259,"ser":260,"Bot":261,"User":262,"at":263,"Ġa":264,"in":265,"Ġt":266,"ing":267,"ou":268,"hat":269,"Ġs":270,"re":271,"Ġl":272,"Ġc":273,"nd":274,"ĠI":275,"Ġf":276,"Ġh":277,"ke":278,"ve":279,"ĠT":280,"Ġe":281,"Ġm":282,"it":283,"ĠThat":284,"Ġw":285,"Ġis":286,"nt":287,"Ġy":288,"Ġp":289,"Ġb":290,"or":291,"Ġyou":292,"ic":293,"st":294,"Ġli":295,"el":296,"Ġlike":297,"Ġto":298,"ol":299,"on":300,"ove":301,"Ġlove":302,"ery":303,"ar":304,"Ġen":305,"Ġg":306,"Ġthat":307,"ob":308,"reat":309,"'s":310,"Ġre":311,"Ġmy":312,"me":313,"Ġd":314,"nds":315,"ounds":316,"Ġfa":317,"Ġo":318,"'m":319,"ite":320,"pe":321,"Ġab":322,"very":323,"Ġof":324,"nc":325,"Ġsounds":326,"Ġint":327,"Ġth":328,"Ġam":329,"obb":330,"jo":331,"Ġhobb":332,"Ġhobby":333,"joy":334,"ut":335,"Ġenjoy":336,"Ġvery":337,"Ġit":338,"ie":339,"an":340,"Ġn":341,"le":342,"ll":343,"vor":344,"oo":345,"Ġch":346,"ear":347,"ond":348,"Ġgreat":349,"og":350,"as":351,"ake":352,"Ġti":353,"Ġhear":354,"Ġtime":355,"Ġspe":356,"Ġfavor":357,"Ġfavorite":358,"Ġspend":359,"est":360,"Ġeat":361,"ice":362,"ra":363,"Ġha":364,"nce":365,"Ġcho":366,"ience":367,"out":368,"ely":369,"Ġabout":370,"Ġwa":371,"ate":372,"ee":373,"ul":374,"hy":375,"Ġrea":376,"Ġinter":377,"Ġinterest":378,"Ġchoice":379,"Ġand":380,"Ġthing":381,"Ġlot":382,"sh":383,"'ve":384,"ĠA":385,"ion":386,"olog":387,"ology":388,"ding":389,"ood":390,"Ġap":391,"sol":392,"utely":393,"solutely":394,"Ġso":395,"lly":396,"ure":397,"Ġreally":398,"Ġan":399,"Ġinto":400,"Ġabsolutely":401,"Ġfond":402,"la":403,"ful":404,"ur":405,"ast":406,"Ġmu":407,"Ġheard":408,"ci":409,"Ġfu":410,"ĠF":411,"ĠV":412,"Ġfor":413,"ĠVery":414,"ass":415,"Ġco":416,"ĠW":417,"Ġmo":418,"es":419,"Ġfe":420,"ch":421,"Ġeng":422,"Ġfeel":423,"mp":424,"ed":425,"Ġcan":426,"akes":427,"king":428,"ish":429,"ous":430,"Ġyour":431,"sy":432,"red":433,"Ġeating":434,"Ġapp":435,"ive":436,"Ġhave":437,"ag":438,"ĠIt":439,"erful":440,"onderful":441,"Ġwonderful":442,"th":443,"Ġsee":444,"ĠE":445,"ious":446,"ill":447,"Ġcoo":448,"ow":449,"ĠWhat":450,"ting":451,"ry":452,"Ġway":453,"ep":454,"um":455,"Ġex":456,"Ġsome":457,"thing":458,"ly":459,"ith":460,"Ġwith":461,"reci":462,"ib":463,"ics":464,"Ġappreci":465,"Ġappreciate":466,"Ġsomething":467,"Ġfant":468,"Ġinteresting":469,"astic":470,"lax":471,"Ġfantastic":472,"Ġrelax":473,"inat":474,"cinat":475,"cinating":476,"Ġwhy":477,"arding":478,"Ġtakes":479,"Ġsa":480,"Ġengag":481,"Ġengaging":482,"ld":483,"one":484,"Ġcou":485,"Ġthe":486,"ac":487,"Ġpur":488,"Ġbe":489,"Ġfun":490,"ay":491,"Ġmore":492,"Ġany":493,"Ġcool":494,"ĠY":495,"Ġke":496,"'d":497,"ĠEx":498,"Ġkeep":499,"Ġr":500,"Ġexp":501,"Ġcreat":502,"Ġbu":503,"erience":504,"Ġexperience":505,"Ġsk":506,"Ġpat":507,"ĠExc":508,"Ġinc":509,"Ġmust":510,"Ġcould":511,"Ġskill":512,"su":513,"Ġanyone":514,"Ġcreative":515,"warding":516,"elle":517,"oble":518,"Ġrewarding":519,"redib":520,"Ġincredib":521,"Ġpass":522,"Ġnoble":523,"Ġpatience":524,"suit":525,"ellent":526,"Ġpassion":527,"al":528,"Ġwish":529,"ascinating":530,"ĠFascinating":531,"Ġrelaxing":532,"Ġpursuit":533,"Ġbusy":534,"ĠExcellent":535,"Ġincredibly":536,"ling":537,"'t":538,"rit":539,"om":540,"Ġdo":541,"ig":542,"Ġbut":543,"Ġwant":544,"os":545,"Ġfeeling":546,"ans":547,"Ġhi":548,"im":549,"Ġar":550,"Ġsc":551,"et":552,"ope":553,"ature":554,"ming":555,"Ġbi":556,"Ġph":557,"onom":558,"phy":559,"ĠB":560,"Ġimp":561,"Ġhope":562,"ĠM":563,"ĠS":564,"Ġhad":565,"Ġfood":566,"ct":567,"ving":568,"ked":569,"Ġdon":570,"Ġcra":571,"Ġcraving":572,"Ġate":573,"Ġbake":574,"Ġcooked":575,"Ġbaked":576,"ta":577,"orta":578,"Ġimporta":579,"Ġimportant":580,"Ġhum":581,"Ġwhat":582,"ies":583,"Ġte":584,"Ġpa":585,"Ġcol":586,"Ġcolor":587,"les":588,"ht":589,"Ġhumans":590,"Ġk":591,"ning":592,"Ġsure":593,"Ġkn":594,"Ġcl":595,"Ġpo":596,"assic":597,"Ġclassic":598,"ink":599,"icious":600,"elicious":601,"Ġevery":602,"ff":603,"Ġdelicious":604,"umm":605,"tit":606,"Ġenjoyed":607,"ĠYumm":608,"ĠSounds":609,"ĠYummy":610,"il":611,"petit":612,"Ġappetit":613,"ĠFood":614,"ine":615,"Ġbite":616,"utrit":617,"Ġnutrit":618,"Ġfuel":619,"ĠMake":620,"Ġnutritious":621,"Ġtreat":622,"Ġsavor":623,"ĠBon":624,"Ġtra":625,"ell":626,"ight":627,"str":628,"se":629,"rea":630,"ĠG":631,"un":632,"Ġst":633,"lad":634,"ation":635,"Ġmov":636,"Ġgo":637,"ĠTh":638,"Ġthink":639,"ory":640,"ds":641,"Ġnow":642,"Ġcy":643,"Ġpain":644,"ist":645,"day":646,"Ġsw":647,"Ġme":648,"Ġsp":649,"als":650,"Ġca":651,"Ġin":652,"Ġtoday":653,"Ġart":654,"Ġba":655,"ace":656,"Ġgoing":657,"sic":658,"Ġcat":659,"Ġga":660,"Ġwrit":661,"Ġmusic":662,"Ġpainting":663,"em":664,"ath":665,"Ġreading":666,"ars":667,"Ġge":668,"Ġanim":669,"Ġmovies":670,"Ġwriting":671,"Ġlit":672,"Ġbest":673,"story":674,"Ġdog":675,"Ġrun":676,"Ġhistory":677,"Ġnature":678,"chn":679,"Ġtrave":680,"Ġfish":681,"Ġbir":682,"Ġcats":683,"Ġanimals":684,"chnology":685,"Ġmed":686,"itting":687,"mping":688,"Ġtechnology":689,"Ġpoet":690,"Ġastr":691,"Ġsing":692,"itation":693,"Ġbac":694,"ogra":695,"Ġcooking":696,"Ġhiking":697,"onomy":698,"Ġspace":699,"Ġcamping":700,"Ġdogs":701,"Ġbirds":702,"Ġastronomy":703,"ce":704,"wing":705,"erature":706,"Ġec":707,"Ġmath":708,"Ġpol":709,"Ġpsy":710,"Ġdra":711,"itect":712,"ulp":713,"Ġcoding":714,"chitect":715,"ign":716,"oso":717,"imming":718,"Ġarchitect":719,"Ġscience":720,"Ġphot":721,"Ġswimming":722,"Ġliterature":723,"Ġpoetry":724,"Ġpsych":725,"Ġarchitecture":726,"anc":727,"cling":728,"sics":729,"ering":730,"Ġcars":731,"itics":732,"Ġyog":733,"Ġphy":734,"Ġdes":735,"Ġdanc":736,"Ġfash":737,"Ġchem":738,"Ġsoci":739,"Ġengine":740,"Ġsculp":741,"Ġbiology":742,"Ġphil":743,"onomics":744,"Ġknitting":745,"Ġcycling":746,"istry":747,"Ġbaking":748,"Ġgaming":749,"Ġgeology":750,"Ġrunning":751,"Ġtraveling":752,"Ġfishing":753,"Ġmeditation":754,"Ġsinging":755,"ography":756,"Ġeconomics":757,"Ġpolitics":758,"Ġdrawing":759,"osophy":760,"Ġphotography":761,"Ġpsychology":762,"Ġyoga":763,"Ġphysics":764,"Ġdesign":765,"Ġdancing":766,"Ġfashion":767,"Ġchemistry":768,"Ġsociology":769,"Ġengineering":770,"Ġsculpting":771,"Ġphilosophy":772,"Ġright":773,"pp":774,"Ġbee":775,"Ġbeen":776,"Ġlat":777,"Ġyes":778,"ppy":779,"Ġhappy":780,"Ġlately":781,"ea":782,"ĠH":783,"ere":784,"Ġcur":785,"ver":786,"Ġne":787,"en":788,"ple":789,"Ġare":790,"qu":791,"Ġqu":792,"Ġnew":793,"Ġwill":794,"ĠP":795,"Ġu":796,"Ġglad":797,"ĠYes":798,"Ġgood":799,"ome":800,"Ġquite":801,"iz":802,"Ġon":803,"erg":804,"Ġenerg":805,"kay":806,"za":807,"ich":808,"Ġbea":809,"ream":810,"izza":811,"ĠO":812,"eep":813,"ĠThe":814,"Ġsu":815,"Ġbeaut":816,"Ġpos":817,"Ġpizza":818,"ers":819,"Ġpast":820,"Ġbeauti":821,"Ġbrea":822,"Ġbeautiful":823,"itive":824,"Ġpositive":825,"Ġpasta":826,"ata":827,"Ġsou":828,"shi":829,"Ġcook":830,"wich":831,"ins":832,"ndwich":833,"ated":834,"Ġsandwich":835,"Ġal":836,"ard":837,"ach":838,"Ġpie":839,"Ġdata":840,"ncakes":841,"Ġpancakes":842,"Ġsushi":843,"ump":844,"ind":845,"ken":846,"gg":847,"ĠR":848,"icken":849,"Ġchicken":850,"Ġsalad":851,"Ġsoup":852,"eo":853,"row":854,"Ġcake":855,"Ġhard":856,"Ġegg":857,"Ġtoast":858,"Ġnood":859,"Ġchee":860,"Ġrice":861,"Ġbread":862,"Ġeggs":863,"col":864,"gers":865,"Ġice":866,"Ġtac":867,"Ġcream":868,"Ġban":869,"Ġbur":870,"Ġdump":871,"anas":872,"Ġchocol":873,"Ġwaff":874,"Ġmuff":875,"Ġapples":876,"Ġbeans":877,"lings":878,"Ġteach":879,"Ġstea":880,"Ġbacon":881,"Ġcurry":882,"Ġcookies":883,"Ġsandwiches":884,"eople":885,"Ġnoodles":886,"Ġcheese":887,"Ġtacos":888,"Ġbananas":889,"Ġburgers":890,"Ġdumplings":891,"Ġchocolate":892,"Ġwaffles":893,"Ġmuffins":894,"Ġsteak":895,"Ġtoo":896,"Ġv":897,"and":898,"ings":899,"nder":900,"Ġseem":901,"Ġunder":902,"stand":903,"ĠYou":904,"Ġunderstand":905,"Ġpr":906,"Ġfr":907,"way":908,"ank":909,"Ġknow":910,"ri":911,"ĠD":912,"Ġlear":913,"Ġwor":914,"ways":915,"Ġback":916,"az":917,"Ġcon":918,"Ġokay":919,"Ġalways":920,"ĠTake":921,"ree":922,"ĠGood":923,"ue":924,"Ġdi":925,"pul":926,"wes":927,"Ġpopul":928,"wesome":929,"Ġpopular":930,"Ġlearn":931,"rant":932,"ibrant":933,"Ġappreciated":934,"Ġstri":935,"Ġvibrant":936,"Ġstriking":937,"mb":938,"Ġag":939,"Ġhere":940,"leep":941,"'re":942,"ĠK":943,"ck":944,"fe":945,"Ġchat":946,"Ġday":947,"ĠHow":948,"ĠKeep":949,"Ġtal":950,"Ġhow":951,"any":952,"Ġsh":953,"Ġtell":954,"race":955,"Ġexc":956,"Ġenergy":957,"'ll":958,"ĠC":959,"ract":960,"ĠAwesome":961,"ĠEmb":962,"Ġnews":963,"ĠEmbrace":964,"sp":965,"ter":966,"Ġtired":967,"ense":968,"Ġsleep":969,"Ġsense":970,"Ġpract":971,"Ġpractice":972,"ght":973,"Ġmany":974,"Ġwas":975,"ĠN":976,"Ġlon":977,"ang":978,"spi":979,"Ġbo":980,"us":981,"erfe":982,"oud":983,"ited":984,"Ġproud":985,"Ġtalk":986,"erfect":987,"njoy":988,"Ġinspi":989,"Ġexcited":990,"iv":991,"med":992,"Ġover":993,"age":994,"ĠEnjoy":995,"Ġif":996,"Ġfind":997,"Ġbr":998,"Ġagree":999,"Ġjoy":1000,"Ġtrain":1001,"Ġbored":1002,"ab":1003,"sel":1004,"scinating":1005,"Ġcal":1006,"Ġget":1007,"Ġfascinating":1008,"etic":1009,"Ġcurious":1010,"Ġenergetic":1011,"azy":1012,"Ġinspired":1013,"self":1014,"gry":1015,"Ġlazy":1016,"Ġreg":1017,"Ġrelaxed":1018,"Ġsad":1019,"Ġsleepy":1020,"Ġcalm":1021,"hel":1022,"whel":1023}