#version: 0.2
e r
Ġ i
o t
s er
B ot
U ser
a t
Ġ a
i n
Ġ t
in g
o u
h at
Ġ s
r e
Ġ l
Ġ c
n d
Ġ I
Ġ h
Ġ f
k e
v e
Ġ T
Ġ e
Ġ m
i t
ĠT hat
Ġ w
Ġi s
n t
Ġ y
Ġ p
Ġ b
o r
Ġy ou
i c
s t
Ġl i
e l
Ġli ke
Ġt o
o l
o n
o ve
Ġl ove
er y
a r
Ġe n
Ġ g
Ġt hat
o b
re at
' s
Ġ re
Ġm y
m e
Ġ d
nd s
ou nds
Ġf a
Ġ o
' m
it e
p e
Ġa b
v ery
Ġo f
n c
Ġs ounds
Ġi nt
Ġt h
Ġa m
ob b
j o
Ġh obb
Ġhobb y
jo y
u t
Ġen joy
Ġ very
Ġi t
i e
a n
Ġ n
l e
l l
v or
o o
Ġc h
e ar
o nd
Ġg reat
o g
a s
a ke
Ġt i
Ġh ear
Ġti me
Ġs pe
Ġfa vor
Ġfavor ite
Ġspe nd
e st
Ġe at
ic e
r a
Ġh a
nc e
Ġch o
ie nce
ou t
el y
Ġab out
Ġw a
at e
e e
u l
h y
Ġre a
Ġint er
Ġinter est
Ġcho ice
Ġa nd
Ġth ing
Ġl ot
s h
' ve
Ġ A
i on
ol og
olog y
d ing
oo d
Ġa p
s ol
ut ely
sol utely
Ġs o
ll y
u re
Ġrea lly
Ġa n
Ġint o
Ġab solutely
Ġf ond
l a
f ul
u r
a st
Ġm u
Ġhear d
c i
Ġf u
Ġ F
Ġ V
Ġf or
ĠV ery
as s
Ġc o
Ġ W
Ġm o
e s
Ġf e
c h
Ġen g
Ġfe el
m p
e d
Ġc an
ake s
k ing
i sh
ou s
Ġyou r
s y
re d
Ġeat ing
Ġap p
i ve
Ġha ve
a g
ĠI t
er ful
ond erful
Ġw onderful
t h
Ġs ee
Ġ E
i ous
i ll
Ġc oo
o w
ĠW hat
t ing
r y
Ġh i
Ġwa y
e p
u m
Ġe x
Ġso me
th ing
l y
it h
Ġw ith
re ci
i b
ic s
Ġapp reci
Ġappreci ate
Ġsome thing
Ġfa nt
Ġinterest ing
ast ic
la x
Ġfant astic
Ġre lax
in at
c inat
cinat ing
Ġw hy
ar ding
Ġt akes
Ġs a
Ġeng ag
Ġengag ing
l d
on e
Ġc ou
Ġth e
a c
Ġp ur
Ġb e
Ġfu n
a y
Ġmo re
Ġan y
Ġco ol
Ġ Y
Ġ ke
' d
ĠE x
Ġke ep
Ġ r
Ġex p
Ġc reat
Ġb u
er ience
Ġexp erience
Ġs k
Ġp at
ĠEx c
Ġi nc
Ġmu st
Ġcou ld
Ġsk ill
s u
Ġany one
Ġcreat ive
w arding
el le
ob le
Ġre warding
red ib
Ġinc redib
Ġp ass
Ġn oble
Ġpat ience
su it
elle nt
Ġpass ion
a l
Ġw ish
as cinating
ĠF ascinating
Ġrelax ing
Ġpur suit
Ġbu sy
ĠExc ellent
Ġincredib ly
l ing
' t
r it
o m
Ġd o
i g
Ġb ut
Ġwa nt
o s
Ġfeel ing
an s
i m
Ġa r
Ġs c
e t
o pe
at ure
m ing
Ġb i
Ġp h
on om
p hy
Ġ B
Ġi mp
Ġh ope
Ġ M
Ġ S
Ġha d
Ġf ood
c t
v ing
ke d
Ġd on
Ġc ra
Ġcra ving
Ġ ate
Ġb ake
Ġcoo ked
Ġbake d
t a
or ta
Ġimp orta
Ġimporta nt
Ġh um
Ġw hat
ie s
Ġt e
Ġp a
Ġc ol
Ġcol or
le s
h t
Ġhum ans
Ġ k
n ing
Ġs ure
Ġk n
Ġc l
Ġp o
ass ic
Ġcl assic
in k
ic ious
el icious
Ġe very
f f
Ġd elicious
um m
t it
Ġenjoy ed
ĠY umm
ĠS ounds
ĠYumm y
i l
pe tit
Ġap petit
ĠF ood
in e
Ġb ite
ut rit
Ġn utrit
Ġfu el
ĠM ake
Ġnutrit ious
Ġt reat
Ġsa vor
ĠB on
Ġt ra
el l
ig ht
st r
s e
re a
Ġ G
u n
Ġs t
la d
at ion
Ġmo v
Ġg o
ĠT h
Ġth ink
or y
d s
Ġn ow
Ġc y
Ġpa in
i st
d ay
Ġs w
Ġm e
Ġs p
al s
Ġc a
Ġi n
Ġto day
Ġar t
Ġb a
ac e
Ġgo ing
s ic
Ġc at
Ġg a
Ġw rit
Ġmu sic
Ġpain ting
e m
at h
Ġrea ding
ar s
Ġg e
Ġan im
Ġmov ies
Ġwrit ing
Ġl it
Ġb est
st ory
Ġd og
Ġhi story
Ġr un
Ġn ature
ch n
Ġtra ve
Ġf ish
Ġbi r
Ġcat s
Ġanim als
chn ology
Ġm ed
it ting
mp ing
Ġte chnology
Ġpo et
Ġa str
Ġs ing
it ation
Ġb ac
og ra
Ġcoo king
Ġhi king
onom y
Ġsp ace
Ġca mping
Ġdog s
Ġbir ds
Ġastr onomy
c e
w ing
er ature
Ġe c
Ġm ath
Ġp ol
Ġp sy
Ġd ra
ite ct
ul p
Ġco ding
ch itect
ig n
os o
im ming
Ġar chitect
Ġsc ience
Ġph ot
Ġsw imming
Ġlit erature
Ġpoet ry
Ġpsy ch
Ġarchitect ure
a nc
c ling
s ics
er ing
Ġc ars
it ics
Ġy og
Ġp hy
Ġd es
Ġd anc
Ġfa sh
Ġch em
Ġso ci
Ġeng ine
Ġsc ulp
Ġbi ology
Ġph il
onom ics
Ġkn itting
Ġcy cling
ist ry
Ġba king
Ġga ming
Ġge ology
Ġrun ning
Ġtrave ling
Ġfish ing
Ġmed itation
Ġsing ing
ogra phy
Ġec onomics
Ġpol itics
Ġdra wing
oso phy
Ġphot ography
Ġpsych ology
Ġyog a
Ġphy sics
Ġdes ign
Ġdanc ing
Ġfash ion
Ġchem istry
Ġsoci ology
Ġengine ering
Ġsculp ting
Ġphil osophy
Ġr ight
p p
Ġb ee
Ġbee n
Ġl at
Ġy es
pp y
Ġha ppy
Ġlat ely
e a
Ġ H
er e
Ġc ur
v er
Ġn e
e n
p le
Ġa re
q u
Ġ qu
Ġne w
Ġw ill
Ġ P
Ġ u
Ġg lad
ĠY es
Ġg ood
o me
Ġqu ite
i z
Ġ on
er g
Ġen erg
k ay
z a
ic h
Ġbe a
rea m
iz za
Ġ O
ee p
ĠTh e
Ġs u
Ġbea ut
Ġp os
Ġp izza
er s
Ġp ast
Ġbeaut i
Ġb rea
Ġbeauti ful
it ive
Ġpos itive
Ġpast a
at a
Ġs ou
sh i
Ġcoo k
w ich
in s
nd wich
ate d
Ġsa ndwich
Ġa l
ar d
a ch
Ġp ie
Ġd ata
nc akes
Ġpa ncakes
Ġsu shi
u mp
in d
ke n
g g
Ġ R
ic ken
Ġch icken
Ġsa lad
Ġsou p
e o
r ow
Ġc ake
Ġh ard
Ġe gg
Ġto ast
Ġn ood
Ġch ee
Ġr ice
Ġbrea d
Ġegg s
c ol
g ers
Ġi ce
Ġt ac
Ġc ream
Ġb an
Ġb ur
Ġd ump
an as
Ġcho col
Ġwa ff
Ġmu ff
Ġapp les
Ġbe ans
ling s
Ġte ach
Ġst ea
Ġbac on
Ġcur ry
Ġcook ies
Ġsandwich es
eo ple
Ġnood les
Ġchee se
Ġtac os
Ġban anas
Ġbur gers
Ġdump lings
Ġchocol ate
Ġwaff les
Ġmuff ins
Ġstea k
Ġto o
Ġ v
a nd
ing s
nd er
Ġsee m
Ġu nder
st and
ĠY ou
Ġunder stand
Ġp r
Ġf r
w ay
an k
Ġkn ow
r i
Ġ D
Ġl ear
Ġw or
way s
Ġbac k
a z
Ġc on
Ġo kay
Ġal ways
ĠT ake
re e
ĠG ood
u e
Ġd i
p ul
w es
Ġpo pul
wes ome
Ġpopul ar
Ġlear n
ra nt
ib rant
Ġappreciate d
Ġst ri
Ġv ibrant
Ġstri king
m b
Ġa g
Ġh ere
le ep
' re
Ġ K
c k
f e
Ġc hat
Ġd ay
ĠH ow
ĠK eep
Ġt al
Ġh ow
an y
Ġs h
Ġt ell
ra ce
Ġex c
Ġenerg y
' ll
Ġ C
ra ct
ĠA wesome
ĠE mb
Ġnew s
ĠEmb race
s p
t er
Ġti red
en se
Ġs leep
Ġs ense
Ġp ract
Ġpract ice
g ht
Ġm any
Ġw as
Ġ N
Ġl on
an g
sp i
Ġb o
u s
er fe
ou d
ite d
Ġpr oud
Ġtal k
erfe ct
n joy
Ġin spi
Ġexc ited
i v
me d
Ġo ver
ag e
ĠE njoy
Ġi f
Ġf ind
Ġb r
Ġag ree
Ġ joy
Ġtra in
Ġbo red
a b
s el
s cinating
Ġc al
Ġg et
Ġfa scinating
et ic
Ġcur ious
Ġenerg etic
az y
Ġinspi red
sel f
g ry
Ġl azy
Ġre g
Ġrelax ed
Ġsa d
Ġsleep y
Ġcal m
h el
w hel
er v
ot iv
ou ght
nd ing
Ġm otiv
on s
Ġthing s
ĠA I
Ġlon ely
us ed
Ġover whel
Ġmotiv ated
f used
u str
x ious
Ġ L
Ġi m
Ġp eople
Ġp erfect
Ġn erv
Ġan gry
Ġan xious
Ġyour self
Ġhope ful
ff ere
Ġfr ustr
Ġcon fused
Ġdi ffere
Ġoverwhel med
Ġnerv ous
Ġfrustr ated
t ter
Ġth ought
Ġbe tter
Ġbr ings
Ġtrain ing
l ue
or row
Ġto p
ag ine
Ġwor th
Ġs e
ol d
Ġre as
Ġinterest ed
ĠA s
Ġim agine
Ġdiffere nt
Ġs et
re en
Ġb reat
la ck
ĠW ell
ĠP eople
Ġseem s
Ġreg arding
Ġtop ic
Ġreas ons
Ġbreat h
i s
ĠD on
ang e
Ġthought s
v y
Ġs or
ĠT om
Ġd eep
Ġsor ry
ĠTom orrow
o on
r ove
nt a
Ġth ank
Ġimp rove
ĠTh ings
Ġse nding
a vy
h ite
ar oon
ra y
il ver
ell ow
ĠTh ank
row n
age nta
ell o
ab le
d y
Ġli st
in king
Ġw e
Ġw ell
Ġth inking
Ġm or
Ġmor ning
mp le
e al
i d
ee d
i me
Ġ "
Ġsh ar
Ġunderstand able
c ome
e ning
m al
ar t
Ġmov ie
Ġfr ie
Ġperfect ly
Ġlist ening
or mal
Ġn ormal
ĠM akes
ĠO kay
Ġthank s
Ġshar ing
Ġm akes
el come
az ing
e y
Ġ or
at ch
Ġt r
Ġn ight
es s
ver s
Ġb lue
Ġam azing
r se
Ġ (
Ġ one
Ġcou rse
ĠG reat
i r
Ġh el
Ġm ind
Ġre d
Ġth ere
ĠO f
ĠThe y
Ġtr ue
Ġhel p
Ġb lack
Ġg reen
Ġco mple
ĠH ello
ĠO r
ĠN ot
b solutely
Ġw atch
Ġd e
ie ve
Ġn ot
ĠA bsolutely
Ġthe y
ĠR ight
t ely
ou ld
nd eed
ĠI ndeed
ĠB lack
ĠG ot
ĠG reen
ĠP ur
ĠR ed
Ġcomple tely
ĠNot ed
l ive
y an
Ġ ol
Ġ un
Ġs ilver
ĠT eal
Ġm aroon
Ġm agenta
Ġw h
Ġw hite
Ġy ellow
Ġp ink
Ġb rown
Ġli me
Ġg old
Ġg ray
Ġn avy
ĠW hite
Ġpur ple
ĠY ellow
ĠB lue
ĠB rown
ĠM aroon
ĠM agenta
ĠS ilver
Ġte al
ĠG old
ĠG ray
Ġcy an
ĠP ink
ĠO live
Ġcon vers
Ġdi d
ĠC yan
ĠN avy
ĠL ime
Ġor ange
ĠOr ange
ĠPur ple
Ġol ive
Ġconvers ation
y e
oo k
Ġfrie nd
Ġb el
ting s
ac t
ĠR ea
b e
x t
Ġ j
ot h
Ġb ook
me nt
Ġn ice
ay be
ĠRea dy
a p
Ġm aybe
Ġn o
Ġne xt
Ġu p
ree tings
Ġbel ieve
Ġrea d
a u
a in
n y
Ġt ry
Ġw r
ĠB u
ĠH a
Ġwor k
act ly
d e
Ġl u
Ġw elcome
Ġdo ing
Ġk ind
Ġst art
Ġf in
Ġp l
Ġth is
ĠW elcome
ĠG o
Ġun i
ĠBu on
h e
n er
Ġm ake
it y
Ġw ow
ee t
Ġsee n
Ġwh en
oth er
. "
f in
i mple
l se
Ġi d
re s
Ġh ello
Ġh ey
Ġe lse
Ġy ea
Ġp la
Ġd ream
Ġdo es
Ġst ory
Ġme an
ĠH i
ĠD id
Ġlear ning
Ġsh ould
Ġwr ite
ĠHa ve
Ġyea h
n e
t ime
ou nd
re sh
Ġf ut
Ġm a
it ing
ob ab
Ġre c
Ġmy st
Ġd in
Ġn eed
Ġwa l
Ġex actly
ĠS ee
ĠG reetings
ĠH ey
ĠR est
Ġpr o
Ġpr obab
Ġag ain
ang u
Ġfrie nds
Ġde fin
Ġfin ish
Ġid ea
res s
Ġfut ure
Ġprobab ly
Ġdefin it
? )
T he
g e
p t
u st
Ġ out
Ġa wesome
Ġs un
Ġl angu
Ġy ep
Ġn ope
ion s
ct ive
Ġba d
Ġbrea k
Ġv is
Ġwal k
Ġdefinit ely
c c
g h
t hy
Ġ J
Ġa d
Ġe ve
Ġb ye
Ġre f
me nd
as y
ĠW e
om mend
et t
ĠB ut
ĠS leep
Ġsw eet
ĠD o
eal thy
Ġrec ommend
Ġdin ner
. .
a me
a ll
d u
f ast
h a
i an
at er
Ġt ake
ou r
Ġs m
on g
Ġha ha
Ġfu ll
Ġthe m
Ġlu ck
Ġpl an
Ġpla y
time s
Ġlangu age
a pe
e ace
e ver
f t
Ġa ll
Ġc le
Ġh ol
Ġb ed
ic k
Ġli fe
Ġo ce
Ġan other
ĠW h
Ġfun ny
os e
ĠB ye
Ġhum an
rea dy
ĠTh en
Ġqu est
Ġu s
Ġal ready
Ġwor ld
Ġwor ds
ĠL ear
Ġj ust
Ġbreak fast
du ctive
Ġoce an
" ?
H ow
a re
a nce
i p
p h
Ġ at
Ġ jo
ser ve
Ġa f
Ġa s
Ġs imple
re t
Ġl a
ĠI s
Ġe nding
Ġw ould
Ġp art
Ġlove ly
ar y
Ġso on
ĠE very
ĠS p
ct ion
Ġpain t
ver se
ĠP erfect
Ġlearn ed
ĠC h
ĠC ome
Ġlon g
is s
Ġmyst er
Ġvis it
Ġeve ning
ĠLear ning
Ġjo ke
! )
a lly
e nt
o re
r o
r or
t en
u ess
y a
Ġh ous
Ġe asy
Ġy o
Ġp eace
Ġb y
or s
Ġg ra
Ġg reetings
Ġg uess
ob ot
Ġre st
nc h
Ġn ap
le as
Ġmu ch
Ġco mp
Ġmo st
Ġhave n
ĠIt al
ĠWhat ever
Ġhi ya
ĠM e
Ġga me
Ġlat er
ea d
ĠH ealthy
Ġhow dy
Ġexc iting
ir st
Ġde serve
ap an
Ġlu nch
Ġuni verse
Ġdream s
Ġmean ing
Ġma de
Ġpro ductive
ĠJ apan
Ġref resh
Ġcle an
Ġquest ions
Ġmyster ious
Ġhous e
ĠItal ian
G ood
Q u
a nt
a red
c au
i se
i ft
s o
s id
t e
u ra
u ment
Ġ ra
Ġ Qu
Ġt ast
Ġh as
Ġf il
Ġf irst
ve nt
Ġm ast
Ġm iss
Ġp leas
or t
ol l
ol ph
Ġg r
Ġg ift
Ġn at
Ġn ame
Ġspe ci
Ġco med
Ġsome times
Ġsa id
Ġsc ared
Ġimp ress
ĠS ome
Ġevery thing
ff ee
Ġgo al
Ġgo als
Ġme m
Ġme ans
ath er
Ġal so
Ġcon ne
Ġsh ow
ght er
ĠL au
ĠBuon a
Ġaf ter
Ġpeace ful
cau se
Ġfil m
Ġmast er
olph ins
Ġcomed y
Ġconne ction
b le
d o
d er
d el
e nd
f or
f ett
h ett
h ead
i al
m i
n ey
o ck
r ing
r ation
s et
t le
t ure
Ġ our
er fett
ot e
ot te
Ġa ch
Ġa cc
Ġa head
re nt
Ġl et
Ġl au
Ġf i
Ġf l
Ġf resh
it ies
Ġw ee
Ġw ater
Ġp ow
Ġb l
or n
or ies
ic al
Ġto ge
Ġg row
Ġre m
Ġd olphins
an otte
oo king
as k
ĠA ll
ĠA ny
Ġco m
Ġco nt
ĠW as
Ġmo del
es e
Ġfe w
ag hett
th er
ib il
Ġsa w
Ġbe ing
ĠEx actly
Ġbu on
ĠM y
ĠS t
ĠS imple
Ġpo em
Ġst ories
Ġca ll
Ġlit tle
Ġtrave l
ĠP erfett
Ġv al
Ġfr om
Ġag end
Ġtal king
Ġbo dy
Ġreg ret
Ġwe ather
Ġwh o
Ġj ob
Ġj our
Ġuni qu
Ġmyst ery
Ġfinish ed
Ġad vent
.. .
Ġsm all
sid e
ura l
ĠQu ick
Ġnat ural
Ġimpress ive
Ġmem ory
ĠLau ghter
Ġach ieve
Ġlau gh
Ġtoge ther
aghett i
ĠPerfett o
Ġagend a
Ġjour ney
a x
b ot
c ess
c ape
e ck
e cause
f y
i le
i rit
l ish
m orrow
n g
n ed
n ess
p ie
p ose
r at
r ie
r ink
s w
s ibil
u de
w ard
z ie
Ġ U
Ġ other
er a
er ci
in ed
Ġt ri
Ġt ask
ou gh
Ġl ol
Ġl ine
Ġl ea
Ġl ess
ĠI n
Ġh ealthy
Ġf la
Ġf ound
ve s
ĠT V
Ġe s
Ġe ar
Ġe ver
Ġw on
nt er
or re
or ds
or ror
el d
el ax
Ġto morrow
ar k
ar act
Ġen ough
Ġre t
Ġd one
pe n
Ġof ten
Ġit s
ie nt
an ish
Ġch eck
og ress
Ġhear t
Ġrea l
ĠA n
ĠA r
ĠA nd
Ġan sw
ĠF rie
Ġco ffee
ĠW or
ĠW hy
ĠW atch
ag es
ow n
Ġwith out
Ġsa me
one y
Ġcou nt
Ġthe ir
ac k
Ġpur pose
Ġbe ne
Ġany thing
Ġr obot
Ġr oll
ĠExc iting
os a
im o
ĠB ecause
ĠS h
ĠS un
Ġcolor s
se nt
Ġst ars
ation s
ĠTh is
ist s
Ġsw ords
Ġsp irit
Ġca re
Ġge n
pp ort
ere al
Ġqu ick
ĠP r
Ġsu cc
Ġpos sibil
ers on
ĠR e
ĠR elax
ĠD elicious
ĠD ream
Ġchat bot
Ġtal ked
Ġsh are
ĠC l
Ġtrain ed
vers al
Ġhelp s
Ġconversation s
Ġwr ote
Ġuni versal
Ġpla nt
Ġma king
Ġout do
Ġsun ny
Ġsm art
Ġhol es
ĠWh ich
ĠSp anish
Ġgra zie
Ġcomp any
ĠJapan ese
Ġrefresh ing
Ġtast e
Ġpleas ure
Ġspeci al
ĠSome times
Ġmaster pie
for ting
mi ly
Ġfi eld
Ġpow erful
Ġval u
Ġuniqu e
Ġadvent ure
fy ing
Ġtri p
Ġear ned
aract ers
ĠFrie nds
Ġpossibil ities
Ġoutdo ors
Ġmasterpie ce
a d
a ly
b u
b ye
c ou
c us
c ument
d les
e w
f i
f ic
f ish
g in
h ing
h ip
i orn
l u
l ways
l oth
l ock
m o
m on
m azing
o p
o y
o mp
o red
o il
p ri
r ot
r ite
r ill
r ist
t o
t y
u ck
v ir
w eet
Ġ 1
Ġ old
er lock
at o
at is
Ġa ir
in ing
in ds
in ue
in ess
in cess
Ġt a
ou p
Ġs y
Ġs ur
Ġs ci
Ġs atis
Ġc ereal
Ġh er
Ġh orror
Ġh oney
Ġf o
Ġf ar
Ġf ine
ke nd
ĠT e
ĠT al
Ġe nd
Ġe ach
Ġm ag
Ġm et
Ġm ir
it ude
Ġw ise
Ġp ar
Ġp reci
Ġp ian
Ġp erson
Ġb it
Ġb ill
Ġb ig
ic ine
ic ture
st er
st ell
Ġli f
Ġli ve
on ment
Ġen cou
Ġen vir
Ġg ot
Ġre l
Ġre s
Ġre sp
Ġd rink
nds cape
Ġth an
Ġth rill
Ġhobb ies
ut um
le d
vor o
Ġch ange
Ġch aracters
og n
ra nd
ra ve
ra ge
Ġha p
Ġwa it
ate ful
sh ine
ĠA re
ĠA lways
ĠA mazing
ion e
ast a
ĠF ear
ĠF itting
Ġfor m
ass ics
Ġco me
Ġco mb
ĠW ould
ĠW ater
ĠW rite
Ġmo ment
ch ed
ĠIt aly
Ġhi ke
Ġex erci
Ġfant asy
Ġthe me
Ġbe gin
Ġr id
om ance
Ġdo cument
Ġar ound
Ġsc rit
Ġsc ary
ĠM ore
ĠS o
ĠS u
ĠS he
Ġpa rent
il ding
str ument
Ġst ep
Ġme al
Ġsp aghetti
Ġca pt
Ġin strument
Ġanim al
Ġmed icine
ĠH ot
ĠH ol
ĠH obb
ĠP izza
ĠP ain
Ġbea ch
Ġsu pport
Ġsou nd
Ġpie ce
ĠR ip
ĠR obot
Ġv ast
Ġpr ogress
ĠGood bye
Ġdi s
Ġsh e
Ġsh ape
ĠC o
ĠC om
ĠC orre
ter n
ĠN ice
ĠN ature
spi ration
Ġbr ight
ĠL et
ĠL uck
Ġdiffere nce
Ġthought ful
Ġwe ir
eal th
Ġshar k
Ġor der
Ġnot hing
Ġun p
Ġfin ding
ĠGo als
ĠBuon anotte
Ġdoes n
Ġpro f
pt im
Ġout side
Ġsun set
Ġvis ione
Ġeve n
Ġref le
Ġla voro
ĠCh rist
Ġrefresh ed
Ġmiss ion
Ġgr ateful
Ġacc omp
Ġlet ter
Ġwee kend
Ġbl ood
Ġcom forting
Ġcont inue
Ġregret s
Ġlaugh ed
lish ed
ng th
ĠIn spiration
Ġes sent
Ġansw er
