#version: 0.2
e r
Ġ i
o t
s er
B ot
U ser
a t
Ġ a
i n
Ġ t
in g
o u
h at
Ġ s
r e
Ġ l
Ġ c
n d
Ġ I
Ġ f
Ġ h
k e
v e
Ġ T
Ġ e
Ġ m
i t
ĠT hat
Ġ w
Ġi s
n t
Ġ y
Ġ p
Ġ b
o r
Ġy ou
i c
s t
Ġl i
e l
Ġli ke
Ġt o
o l
o n
o ve
Ġl ove
er y
a r
Ġe n
Ġ g
Ġt hat
o b
re at
' s
Ġ re
Ġm y
m e
Ġ d
nd s
ou nds
Ġf a
Ġ o
' m
it e
p e
Ġa b
v ery
Ġo f
n c
Ġs ounds
Ġi nt
Ġt h
Ġa m
ob b
j o
Ġh obb
Ġhobb y
jo y
u t
Ġen joy
Ġ very
Ġi t
i e
a n
Ġ n
l e
l l
v or
o o
Ġc h
e ar
o nd
Ġg reat
o g
a s
a ke
Ġt i
Ġh ear
Ġti me
Ġs pe
Ġfa vor
Ġfavor ite
Ġspe nd
e st
Ġe at
ic e
r a
Ġh a
nc e
Ġch o
ie nce
ou t
el y
Ġab out
Ġw a
at e
e e
u l
h y
Ġre a
Ġint er
Ġinter est
Ġcho ice
Ġa nd
Ġth ing
Ġl ot
s h
' ve
Ġ A
i on
ol og
olog y
d ing
oo d
Ġa p
s ol
ut ely
sol utely
Ġs o
ll y
u re
Ġrea lly
Ġa n
Ġint o
Ġab solutely
Ġf ond
l a
f ul
u r
a st
Ġm u
Ġhear d
c i
Ġf u
Ġ F
Ġ V
Ġf or
ĠV ery
as s
Ġc o
Ġ W
Ġm o
e s
Ġf e
c h
Ġen g
Ġfe el
m p
e d
Ġc an
ake s
k ing
i sh
ou s
Ġyou r
s y
re d
Ġeat ing
Ġap p
i ve
Ġha ve
a g
ĠI t
er ful
ond erful
Ġw onderful
t h
Ġs ee
Ġ E
i ous
i ll
Ġc oo
o w
ĠW hat
t ing
r y
Ġwa y
e p
u m
Ġe x
Ġso me
th ing
l y
it h
Ġw ith
re ci
i b
ic s
Ġapp reci
Ġappreci ate
Ġsome thing
Ġfa nt
Ġinterest ing
ast ic
la x
Ġfant astic
Ġre lax
in at
c inat
cinat ing
Ġw hy
ar ding
Ġt akes
Ġs a
Ġeng ag
Ġengag ing
l d
on e
Ġc ou
Ġth e
a c
Ġp ur
Ġb e
Ġfu n
a y
Ġmo re
Ġan y
Ġco ol
Ġ Y
Ġ ke
' d
ĠE x
Ġke ep
Ġ r
Ġex p
Ġc reat
Ġb u
er ience
Ġexp erience
Ġs k
Ġp at
ĠEx c
Ġi nc
Ġmu st
Ġcou ld
Ġsk ill
s u
Ġany one
Ġcreat ive
w arding
el le
ob le
Ġre warding
red ib
Ġinc redib
Ġp ass
Ġn oble
Ġpat ience
su it
elle nt
Ġpass ion
a l
Ġw ish
as cinating
ĠF ascinating
Ġrelax ing
Ġpur suit
Ġbu sy
ĠExc ellent
Ġincredib ly
l ing
' t
r it
o m
Ġd o
i g
Ġb ut
Ġwa nt
o s
Ġfeel ing
an s
Ġh i
i m
Ġa r
Ġs c
e t
o pe
at ure
m ing
Ġb i
Ġp h
on om
p hy
Ġ B
Ġi mp
Ġh ope
Ġ M
Ġ S
Ġha d
Ġf ood
c t
v ing
ke d
Ġd on
Ġc ra
Ġcra ving
Ġ ate
Ġb ake
Ġcoo ked
Ġbake d
t a
or ta
Ġimp orta
Ġimporta nt
Ġh um
Ġw hat
ie s
Ġt e
Ġp a
Ġc ol
Ġcol or
le s
h t
Ġhum ans
Ġ k
n ing
Ġs ure
Ġk n
Ġc l
Ġp o
ass ic
Ġcl assic
in k
ic ious
el icious
Ġe very
f f
Ġd elicious
um m
t it
Ġenjoy ed
ĠY umm
ĠS ounds
ĠYumm y
i l
pe tit
Ġap petit
ĠF ood
in e
Ġb ite
ut rit
Ġn utrit
Ġfu el
ĠM ake
Ġnutrit ious
Ġt reat
Ġsa vor
ĠB on
Ġt ra
el l
ig ht
st r
s e
re a
Ġ G
u n
Ġs t
la d
at ion
Ġmo v
Ġg o
ĠT h
Ġth ink
or y
d s
Ġn ow
Ġc y
Ġpa in
i st
d ay
Ġs w
Ġm e
Ġs p
al s
Ġc a
Ġi n
Ġto day
Ġar t
Ġb a
ac e
Ġgo ing
s ic
Ġc at
Ġg a
Ġw rit
Ġmu sic
Ġpain ting
e m
at h
Ġrea ding
ar s
Ġg e
Ġan im
Ġmov ies
Ġwrit ing
Ġl it
Ġb est
st ory
Ġd og
Ġr un
Ġhi story
Ġn ature
ch n
Ġtra ve
Ġf ish
Ġbi r
Ġcat s
Ġanim als
chn ology
Ġm ed
it ting
mp ing
Ġte chnology
Ġpo et
Ġa str
Ġs ing
it ation
Ġb ac
og ra
Ġcoo king
Ġhi king
onom y
Ġsp ace
Ġca mping
Ġdog s
Ġbir ds
Ġastr onomy
c e
w ing
er ature
Ġe c
Ġm ath
Ġp ol
Ġp sy
Ġd ra
ite ct
ul p
Ġco ding
ch itect
ig n
os o
im ming
Ġar chitect
Ġsc ience
Ġph ot
Ġsw imming
Ġlit erature
Ġpoet ry
Ġpsy ch
Ġarchitect ure
a nc
c ling
s ics
er ing
Ġc ars
it ics
Ġy og
Ġp hy
Ġd es
Ġd anc
Ġfa sh
Ġch em
Ġso ci
Ġeng ine
Ġsc ulp
Ġbi ology
Ġph il
onom ics
Ġkn itting
Ġcy cling
ist ry
Ġba king
Ġga ming
Ġge ology
Ġrun ning
Ġtrave ling
Ġfish ing
Ġmed itation
Ġsing ing
ogra phy
Ġec onomics
Ġpol itics
Ġdra wing
oso phy
Ġphot ography
Ġpsych ology
Ġyog a
Ġphy sics
Ġdes ign
Ġdanc ing
Ġfash ion
Ġchem istry
Ġsoci ology
Ġengine ering
Ġsculp ting
Ġphil osophy
Ġr ight
p p
Ġb ee
Ġbee n
Ġl at
Ġy es
pp y
Ġha ppy
Ġlat ely
e a
Ġ H
er e
Ġc ur
v er
Ġn e
e n
p le
Ġa re
q u
Ġ qu
Ġne w
Ġw ill
Ġ P
Ġ u
Ġg lad
ĠY es
Ġg ood
o me
Ġqu ite
i z
Ġ on
er g
Ġen erg
k ay
z a
ic h
Ġbe a
rea m
iz za
Ġ O
ee p
ĠTh e
Ġs u
Ġbea ut
Ġp os
Ġp izza
er s
Ġp ast
Ġbeaut i
Ġb rea
Ġbeauti ful
it ive
Ġpos itive
Ġpast a
at a
Ġs ou
sh i
Ġcoo k
w ich
in s
nd wich
ate d
Ġsa ndwich
Ġa l
ar d
a ch
Ġp ie
Ġd ata
nc akes
Ġpa ncakes
Ġsu shi
u mp
in d
ke n
g g
Ġ R
ic ken
Ġch icken
Ġsa lad
Ġsou p
e o
r ow
Ġc ake
Ġh ard
Ġe gg
Ġto ast
Ġn ood
Ġch ee
Ġr ice
Ġbrea d
Ġegg s
c ol
g ers
Ġi ce
Ġt ac
Ġc ream
Ġb an
Ġb ur
Ġd ump
an as
Ġcho col
Ġwa ff
Ġmu ff
Ġapp les
Ġbe ans
ling s
Ġte ach
Ġst ea
Ġbac on
Ġcur ry
Ġcook ies
Ġsandwich es
eo ple
Ġnood les
Ġchee se
Ġtac os
Ġban anas
Ġbur gers
Ġdump lings
Ġchocol ate
Ġwaff les
Ġmuff ins
Ġstea k
Ġto o
Ġ v
a nd
ing s
nd er
Ġsee m
Ġu nder
st and
ĠY ou
Ġunder stand
Ġp r
Ġf r
w ay
an k
Ġkn ow
r i
Ġ D
Ġl ear
Ġw or
way s
Ġbac k
a z
Ġc on
Ġo kay
Ġal ways
ĠT ake
re e
ĠG ood
u e
Ġd i
p ul
w es
Ġpo pul
wes ome
Ġpopul ar
Ġlear n
ra nt
ib rant
Ġappreciate d
Ġst ri
Ġv ibrant
Ġstri king
m b
Ġa g
Ġh ere
le ep
' re
Ġ K
c k
f e
Ġc hat
Ġd ay
ĠH ow
ĠK eep
Ġt al
Ġh ow
an y
Ġs h
Ġt ell
ra ce
Ġex c
Ġenerg y
' ll
Ġ C
ra ct
ĠA wesome
ĠE mb
Ġnew s
ĠEmb race
s p
t er
Ġti red
en se
Ġs leep
Ġs ense
Ġp ract
Ġpract ice
g ht
Ġm any
Ġw as
Ġ N
Ġl on
an g
sp i
Ġb o
u s
er fe
ou d
ite d
Ġpr oud
Ġtal k
erfe ct
n joy
Ġin spi
Ġexc ited
i v
me d
Ġo ver
ag e
ĠE njoy
Ġi f
Ġf ind
Ġb r
Ġag ree
Ġ joy
Ġtra in
Ġbo red
a b
s el
s cinating
Ġc al
Ġg et
Ġfa scinating
et ic
Ġcur ious
Ġenerg etic
az y
Ġinspi red
sel f
g ry
Ġl azy
Ġre g
Ġrelax ed
Ġsa d
Ġsleep y
Ġcal m
h el
w hel
